{
  "id_to_token": {
    "0": "[UNK]",
    "1": "\n",
    "10": "0",
    "100": "all",
    "101": "be",
    "102": "com",
    "103": "machines",
    "104": "nd",
    "105": "ve",
    "106": "such",
    "107": ".,",
    "108": "comp",
    "109": "tifi",
    "11": "1",
    "110": "iv",
    "111": "stu",
    "112": "pp",
    "113": "g.,",
    "114": "et",
    "115": "(e",
    "116": "und",
    "117": "used",
    "118": "rtifi",
    "119": "Artifi",
    "12": "2",
    "120": "dis",
    "121": "(such",
    "122": "thr",
    "123": "og",
    "124": "man",
    "125": "iving",
    "126": "inter",
    "127": "chn",
    "128": "ter",
    "129": "ear",
    "13": "5",
    "130": "str",
    "131": "ment",
    "132": "app",
    "133": "throu",
    "134": "cience",
    "135": "cre",
    "136": ".g.,",
    "137": "earch",
    "138": "igh",
    "139": "to",
    "14": "6",
    "140": "uman",
    "141": "al",
    "142": "(e.g.,",
    "143": "ation",
    "144": "gh",
    "145": "vel",
    "146": "stud",
    "147": "ls",
    "148": "ative",
    "149": "Artifici",
    "15": "9",
    "150": "human",
    "151": "Go",
    "152": "high",
    "153": "eld",
    "154": "techn",
    "155": "through",
    "156": "field",
    "157": "science",
    "158": "ow",
    "159": "unding",
    "16": ":",
    "160": "Artificial",
    "161": "est",
    "162": "by",
    "163": "are",
    "164": "science.",
    "165": "being",
    "166": "search",
    "167": "ad",
    "168": "6.",
    "169": "sur",
    "17": "A",
    "170": "lin",
    "171": "eb",
    "172": "ir",
    "173": "art",
    "174": "devel",
    "175": "f-",
    "176": "kn",
    "177": "highest",
    "178": "ism",
    "179": "gines",
    "18": "C",
    "180": "am",
    "181": "suall",
    "182": "ther",
    "183": "Ch",
    "184": "too",
    "185": "zon",
    "186": "os",
    "187": "lex",
    "188": "pas",
    "189": "adv",
    "19": "F",
    "190": "compet",
    "191": "ches",
    "192": "20",
    "193": "dee",
    "194": "techno",
    "195": "rative",
    "196": "qu",
    "197": "stand",
    "198": "AIs",
    "199": "comm",
    "2": "\r",
    "20": "G",
    "200": "fl",
    "201": "ased",
    "202": "oft",
    "203": "osed",
    "204": "gam",
    "205": "dem",
    "206": "alled",
    "207": "throughou",
    "208": "compu",
    "209": "teg",
    "21": "I",
    "210": "ove",
    "211": "PT",
    "212": "rn",
    "213": "ee",
    "214": "opp",
    "215": "Alex",
    "216": "art),",
    "217": "f-d",
    "218": "ca",
    "219": "high-",
    "22": "N",
    "220": "know",
    "221": "etfl",
    "222": "deep",
    "223": "pee",
    "224": "ateg",
    "225": "ind",
    "226": "are,",
    "227": "ning",
    "228": "studi",
    "229": "95",
    "23": "P",
    "230": "computer",
    "231": "may",
    "232": "plin",
    "233": "funding",
    "234": "vas",
    "235": "iqu",
    "236": "tip",
    "237": "technol",
    "238": "tem",
    "239": "AI)",
    "24": "S",
    "240": "atG",
    "241": "went",
    "242": "oss",
    "243": "Su",
    "244": "fter",
    "245": "etfli",
    "246": "known",
    "247": "tools",
    "248": "Goog",
    "249": "pline",
    "25": "T",
    "250": "es.",
    "251": "disapp",
    "252": "yc",
    "253": "oftw",
    "254": "opposed",
    "255": "les",
    "256": "vast",
    "257": "ustr",
    "258": "high-p",
    "259": "lic",
    "26": "W",
    "260": "spee",
    "261": "he",
    "262": "(used",
    "263": "web",
    "264": "ly",
    "265": "fou",
    "266": "ene",
    "267": "rev",
    "268": "atGPT",
    "269": "tems",
    "27": "Y",
    "270": "be,",
    "271": "ul",
    "272": "956.",
    "273": "mo",
    "274": ").",
    "275": "un",
    "276": "Google",
    "277": "sel",
    "278": "competing",
    "279": "ls.",
    "28": "a",
    "280": "The",
    "281": "a),",
    "282": "oin",
    "283": "ycles",
    "284": "Tu",
    "285": "incre",
    "286": "beings",
    "287": "ile",
    "288": "self-d",
    "289": "Search",
    "29": "b",
    "290": "tim",
    "291": "car",
    "292": "chess",
    "293": "after",
    "294": "iques.",
    "295": "disappoin",
    "296": "standing",
    "297": "ymo",
    "298": "prev",
    "299": "disappoint",
    "3": " ",
    "30": "c",
    "300": "It",
    "301": "dation",
    "302": "etflix",
    "303": "engines",
    "304": "techniques.",
    "305": "iri",
    "306": "intelligent",
    "307": "fo",
    "308": "ment,",
    "309": "ome",
    "31": "d",
    "310": "technolog",
    "311": "unde",
    "312": "Some",
    "313": "passed",
    "314": "mazon",
    "315": "ced",
    "316": "hen",
    "317": "rstanding",
    "318": "technology",
    "319": "You",
    "32": "e",
    "320": "lication",
    "321": "Wa",
    "322": "enerative",
    "323": "industr",
    "324": "endation",
    "325": "del",
    "326": "softw",
    "327": "ism,",
    "328": "usuall",
    "329": "Netflix",
    "33": "f",
    "330": "iou",
    "331": "owed",
    "332": "riving",
    "333": "201",
    "334": "demic",
    "335": "funding,",
    "336": "commendation",
    "337": "high-pr",
    "338": "studies",
    "339": "understanding",
    "34": "g",
    "340": "ima",
    "341": "mazon,",
    "342": "vastly",
    "343": "are:",
    "344": "Tube,",
    "345": "Alexa),",
    "346": "\"AI",
    "347": "humans",
    "348": "ys",
    "349": "speech",
    "35": "h",
    "350": "aca",
    "351": "games",
    "352": "strateg",
    "353": "(AI)",
    "354": "foll",
    "355": "y,",
    "356": "arning",
    "357": "ultip",
    "358": "Such",
    "359": "Search),",
    "36": "i",
    "360": "when",
    "361": "ymo),",
    "362": "called",
    "363": "machines.",
    "364": "throughout",
    "365": "Waymo),",
    "366": "ystems",
    "367": "idel",
    "368": "followed",
    "369": "strategic",
    "37": "k",
    "370": "Siri",
    "371": "interest",
    "372": "ofile",
    "373": "application",
    "374": "cipline",
    "375": "high-profile",
    "376": "anced",
    "377": "gove",
    "378": "other",
    "379": "level",
    "38": "l",
    "380": "widel",
    "381": "surpassed",
    "382": "Funding",
    "383": "inter\"",
    "384": "ultiple",
    "385": "cycles",
    "386": "YouTube,",
    "387": "systems",
    "388": "creative",
    "389": "recommendation",
    "39": "m",
    "390": "multiple",
    "391": "usually",
    "392": "AIs.",
    "393": "(Ch",
    "394": "that",
    "395": "software,",
    "396": "ops",
    "397": "self-driving",
    "398": "cars",
    "399": "advanced",
    "4": "\"",
    "40": "n",
    "400": "was",
    "401": "imals.",
    "402": "optim",
    "403": "inter\".",
    "404": "disappointment",
    "405": "beings,",
    "406": "discipline",
    "407": "1956.",
    "408": "learning",
    "409": "previou",
    "41": "o",
    "410": "(ChatGPT",
    "411": "optimism,",
    "412": "applications",
    "413": "rnment,",
    "414": "generative",
    "415": "nded",
    "416": "Amazon,",
    "417": "Netflix),",
    "418": "study",
    "419": "Go).",
    "42": "p",
    "420": "industry,",
    "421": "living",
    "422": "academic",
    "423": "winter\".",
    "424": "2012",
    "425": "increased",
    "426": "animals.",
    "427": "government,",
    "428": "develops",
    "429": "loss",
    "43": "q",
    "430": "widely",
    "431": "previous",
    "432": "founded",
    "44": "r",
    "45": "s",
    "46": "t",
    "47": "u",
    "48": "v",
    "49": "w",
    "5": "(",
    "50": "x",
    "51": "y",
    "52": "z",
    "53": "in",
    "54": "an",
    "55": "en",
    "56": "te",
    "57": "ch",
    "58": "es",
    "59": "and",
    "6": ")",
    "60": "ll",
    "61": "as",
    "62": "ed",
    "63": "ing",
    "64": "th",
    "65": "ti",
    "66": "ar",
    "67": "inte",
    "68": "ig",
    "69": "of",
    "7": ",",
    "70": "ma",
    "71": "is",
    "72": "le",
    "73": "ou",
    "74": "enc",
    "75": "el",
    "76": "ence",
    "77": "AI",
    "78": "intell",
    "79": "ci",
    "8": "-",
    "80": "st",
    "81": "the",
    "82": "intellig",
    "83": "),",
    "84": "de",
    "85": "ati",
    "86": "ent",
    "87": "om",
    "88": "ines",
    "89": "re",
    "9": ".",
    "90": "intelligence",
    "91": "su",
    "92": "fi",
    "93": "sed",
    "94": "on",
    "95": "or",
    "96": "op",
    "97": "ic",
    "98": "chines",
    "99": "at"
  },
  "merges": [
    [
      "i",
      "n"
    ],
    [
      "a",
      "n"
    ],
    [
      "e",
      "n"
    ],
    [
      "t",
      "e"
    ],
    [
      "c",
      "h"
    ],
    [
      "e",
      "s"
    ],
    [
      "an",
      "d"
    ],
    [
      "l",
      "l"
    ],
    [
      "a",
      "s"
    ],
    [
      "e",
      "d"
    ],
    [
      "in",
      "g"
    ],
    [
      "t",
      "h"
    ],
    [
      "t",
      "i"
    ],
    [
      "a",
      "r"
    ],
    [
      "in",
      "te"
    ],
    [
      "i",
      "g"
    ],
    [
      "o",
      "f"
    ],
    [
      "m",
      "a"
    ],
    [
      "i",
      "s"
    ],
    [
      "l",
      "e"
    ],
    [
      "o",
      "u"
    ],
    [
      "en",
      "c"
    ],
    [
      "e",
      "l"
    ],
    [
      "enc",
      "e"
    ],
    [
      "A",
      "I"
    ],
    [
      "inte",
      "ll"
    ],
    [
      "c",
      "i"
    ],
    [
      "s",
      "t"
    ],
    [
      "th",
      "e"
    ],
    [
      "intell",
      "ig"
    ],
    [
      ")",
      ","
    ],
    [
      "d",
      "e"
    ],
    [
      "a",
      "ti"
    ],
    [
      "en",
      "t"
    ],
    [
      "o",
      "m"
    ],
    [
      "in",
      "es"
    ],
    [
      "r",
      "e"
    ],
    [
      "intellig",
      "ence"
    ],
    [
      "s",
      "u"
    ],
    [
      "f",
      "i"
    ],
    [
      "s",
      "ed"
    ],
    [
      "o",
      "n"
    ],
    [
      "o",
      "r"
    ],
    [
      "o",
      "p"
    ],
    [
      "i",
      "c"
    ],
    [
      "ch",
      "ines"
    ],
    [
      "a",
      "t"
    ],
    [
      "a",
      "ll"
    ],
    [
      "b",
      "e"
    ],
    [
      "c",
      "om"
    ],
    [
      "ma",
      "chines"
    ],
    [
      "n",
      "d"
    ],
    [
      "v",
      "e"
    ],
    [
      "su",
      "ch"
    ],
    [
      ".",
      ","
    ],
    [
      "com",
      "p"
    ],
    [
      "ti",
      "fi"
    ],
    [
      "i",
      "v"
    ],
    [
      "st",
      "u"
    ],
    [
      "p",
      "p"
    ],
    [
      "g",
      ".,"
    ],
    [
      "e",
      "t"
    ],
    [
      "(",
      "e"
    ],
    [
      "u",
      "nd"
    ],
    [
      "u",
      "sed"
    ],
    [
      "r",
      "tifi"
    ],
    [
      "A",
      "rtifi"
    ],
    [
      "d",
      "is"
    ],
    [
      "(",
      "such"
    ],
    [
      "th",
      "r"
    ],
    [
      "o",
      "g"
    ],
    [
      "m",
      "an"
    ],
    [
      "iv",
      "ing"
    ],
    [
      "inte",
      "r"
    ],
    [
      "ch",
      "n"
    ],
    [
      "te",
      "r"
    ],
    [
      "e",
      "ar"
    ],
    [
      "st",
      "r"
    ],
    [
      "m",
      "ent"
    ],
    [
      "a",
      "pp"
    ],
    [
      "thr",
      "ou"
    ],
    [
      "ci",
      "ence"
    ],
    [
      "c",
      "re"
    ],
    [
      ".",
      "g.,"
    ],
    [
      "ear",
      "ch"
    ],
    [
      "ig",
      "h"
    ],
    [
      "t",
      "o"
    ],
    [
      "u",
      "man"
    ],
    [
      "a",
      "l"
    ],
    [
      "(e",
      ".g.,"
    ],
    [
      "ati",
      "on"
    ],
    [
      "g",
      "h"
    ],
    [
      "v",
      "el"
    ],
    [
      "stu",
      "d"
    ],
    [
      "l",
      "s"
    ],
    [
      "ati",
      "ve"
    ],
    [
      "Artifi",
      "ci"
    ],
    [
      "h",
      "uman"
    ],
    [
      "G",
      "o"
    ],
    [
      "h",
      "igh"
    ],
    [
      "el",
      "d"
    ],
    [
      "te",
      "chn"
    ],
    [
      "throu",
      "gh"
    ],
    [
      "fi",
      "eld"
    ],
    [
      "s",
      "cience"
    ],
    [
      "o",
      "w"
    ],
    [
      "und",
      "ing"
    ],
    [
      "Artifici",
      "al"
    ],
    [
      "es",
      "t"
    ],
    [
      "b",
      "y"
    ],
    [
      "ar",
      "e"
    ],
    [
      "science",
      "."
    ],
    [
      "be",
      "ing"
    ],
    [
      "s",
      "earch"
    ],
    [
      "a",
      "d"
    ],
    [
      "6",
      "."
    ],
    [
      "su",
      "r"
    ],
    [
      "l",
      "in"
    ],
    [
      "e",
      "b"
    ],
    [
      "i",
      "r"
    ],
    [
      "ar",
      "t"
    ],
    [
      "de",
      "vel"
    ],
    [
      "f",
      "-"
    ],
    [
      "k",
      "n"
    ],
    [
      "high",
      "est"
    ],
    [
      "is",
      "m"
    ],
    [
      "g",
      "ines"
    ],
    [
      "a",
      "m"
    ],
    [
      "su",
      "all"
    ],
    [
      "the",
      "r"
    ],
    [
      "C",
      "h"
    ],
    [
      "to",
      "o"
    ],
    [
      "z",
      "on"
    ],
    [
      "o",
      "s"
    ],
    [
      "le",
      "x"
    ],
    [
      "p",
      "as"
    ],
    [
      "ad",
      "v"
    ],
    [
      "comp",
      "et"
    ],
    [
      "ch",
      "es"
    ],
    [
      "2",
      "0"
    ],
    [
      "de",
      "e"
    ],
    [
      "techn",
      "o"
    ],
    [
      "r",
      "ative"
    ],
    [
      "q",
      "u"
    ],
    [
      "st",
      "and"
    ],
    [
      "AI",
      "s"
    ],
    [
      "com",
      "m"
    ],
    [
      "f",
      "l"
    ],
    [
      "as",
      "ed"
    ],
    [
      "of",
      "t"
    ],
    [
      "o",
      "sed"
    ],
    [
      "g",
      "am"
    ],
    [
      "de",
      "m"
    ],
    [
      "all",
      "ed"
    ],
    [
      "through",
      "ou"
    ],
    [
      "comp",
      "u"
    ],
    [
      "te",
      "g"
    ],
    [
      "o",
      "ve"
    ],
    [
      "P",
      "T"
    ],
    [
      "r",
      "n"
    ],
    [
      "e",
      "e"
    ],
    [
      "op",
      "p"
    ],
    [
      "A",
      "lex"
    ],
    [
      "art",
      "),"
    ],
    [
      "f-",
      "d"
    ],
    [
      "c",
      "a"
    ],
    [
      "high",
      "-"
    ],
    [
      "kn",
      "ow"
    ],
    [
      "et",
      "fl"
    ],
    [
      "dee",
      "p"
    ],
    [
      "p",
      "ee"
    ],
    [
      "a",
      "teg"
    ],
    [
      "in",
      "d"
    ],
    [
      "are",
      ","
    ],
    [
      "n",
      "ing"
    ],
    [
      "stud",
      "i"
    ],
    [
      "9",
      "5"
    ],
    [
      "compu",
      "ter"
    ],
    [
      "ma",
      "y"
    ],
    [
      "p",
      "lin"
    ],
    [
      "f",
      "unding"
    ],
    [
      "v",
      "as"
    ],
    [
      "i",
      "qu"
    ],
    [
      "ti",
      "p"
    ],
    [
      "techno",
      "l"
    ],
    [
      "te",
      "m"
    ],
    [
      "AI",
      ")"
    ],
    [
      "at",
      "G"
    ],
    [
      "w",
      "ent"
    ],
    [
      "os",
      "s"
    ],
    [
      "S",
      "u"
    ],
    [
      "f",
      "ter"
    ],
    [
      "etfl",
      "i"
    ],
    [
      "know",
      "n"
    ],
    [
      "too",
      "ls"
    ],
    [
      "Go",
      "og"
    ],
    [
      "plin",
      "e"
    ],
    [
      "es",
      "."
    ],
    [
      "dis",
      "app"
    ],
    [
      "y",
      "c"
    ],
    [
      "oft",
      "w"
    ],
    [
      "opp",
      "osed"
    ],
    [
      "l",
      "es"
    ],
    [
      "vas",
      "t"
    ],
    [
      "u",
      "str"
    ],
    [
      "high-",
      "p"
    ],
    [
      "l",
      "ic"
    ],
    [
      "s",
      "pee"
    ],
    [
      "h",
      "e"
    ],
    [
      "(",
      "used"
    ],
    [
      "w",
      "eb"
    ],
    [
      "l",
      "y"
    ],
    [
      "f",
      "ou"
    ],
    [
      "en",
      "e"
    ],
    [
      "re",
      "v"
    ],
    [
      "atG",
      "PT"
    ],
    [
      "tem",
      "s"
    ],
    [
      "be",
      ","
    ],
    [
      "u",
      "l"
    ],
    [
      "95",
      "6."
    ],
    [
      "m",
      "o"
    ],
    [
      ")",
      "."
    ],
    [
      "u",
      "n"
    ],
    [
      "Goog",
      "le"
    ],
    [
      "s",
      "el"
    ],
    [
      "compet",
      "ing"
    ],
    [
      "ls",
      "."
    ],
    [
      "T",
      "he"
    ],
    [
      "a",
      "),"
    ],
    [
      "o",
      "in"
    ],
    [
      "yc",
      "les"
    ],
    [
      "T",
      "u"
    ],
    [
      "in",
      "cre"
    ],
    [
      "being",
      "s"
    ],
    [
      "i",
      "le"
    ],
    [
      "sel",
      "f-d"
    ],
    [
      "S",
      "earch"
    ],
    [
      "ti",
      "m"
    ],
    [
      "c",
      "ar"
    ],
    [
      "ches",
      "s"
    ],
    [
      "a",
      "fter"
    ],
    [
      "iqu",
      "es."
    ],
    [
      "disapp",
      "oin"
    ],
    [
      "stand",
      "ing"
    ],
    [
      "y",
      "mo"
    ],
    [
      "p",
      "rev"
    ],
    [
      "disappoin",
      "t"
    ],
    [
      "I",
      "t"
    ],
    [
      "d",
      "ation"
    ],
    [
      "etfli",
      "x"
    ],
    [
      "en",
      "gines"
    ],
    [
      "techn",
      "iques."
    ],
    [
      "ir",
      "i"
    ],
    [
      "intellig",
      "ent"
    ],
    [
      "f",
      "o"
    ],
    [
      "ment",
      ","
    ],
    [
      "om",
      "e"
    ],
    [
      "technol",
      "og"
    ],
    [
      "un",
      "de"
    ],
    [
      "S",
      "ome"
    ],
    [
      "pas",
      "sed"
    ],
    [
      "ma",
      "zon"
    ],
    [
      "c",
      "ed"
    ],
    [
      "h",
      "en"
    ],
    [
      "r",
      "standing"
    ],
    [
      "technolog",
      "y"
    ],
    [
      "Y",
      "ou"
    ],
    [
      "lic",
      "ation"
    ],
    [
      "W",
      "a"
    ],
    [
      "ene",
      "rative"
    ],
    [
      "ind",
      "ustr"
    ],
    [
      "en",
      "dation"
    ],
    [
      "d",
      "el"
    ],
    [
      "s",
      "oftw"
    ],
    [
      "ism",
      ","
    ],
    [
      "u",
      "suall"
    ],
    [
      "N",
      "etflix"
    ],
    [
      "i",
      "ou"
    ],
    [
      "ow",
      "ed"
    ],
    [
      "r",
      "iving"
    ],
    [
      "20",
      "1"
    ],
    [
      "dem",
      "ic"
    ],
    [
      "funding",
      ","
    ],
    [
      "comm",
      "endation"
    ],
    [
      "high-p",
      "r"
    ],
    [
      "studi",
      "es"
    ],
    [
      "unde",
      "rstanding"
    ],
    [
      "i",
      "ma"
    ],
    [
      "mazon",
      ","
    ],
    [
      "vast",
      "ly"
    ],
    [
      "are",
      ":"
    ],
    [
      "Tu",
      "be,"
    ],
    [
      "Alex",
      "a),"
    ],
    [
      "\"",
      "AI"
    ],
    [
      "human",
      "s"
    ],
    [
      "y",
      "s"
    ],
    [
      "spee",
      "ch"
    ],
    [
      "a",
      "ca"
    ],
    [
      "gam",
      "es"
    ],
    [
      "str",
      "ateg"
    ],
    [
      "(",
      "AI)"
    ],
    [
      "fo",
      "ll"
    ],
    [
      "y",
      ","
    ],
    [
      "ar",
      "ning"
    ],
    [
      "ul",
      "tip"
    ],
    [
      "Su",
      "ch"
    ],
    [
      "Search",
      "),"
    ],
    [
      "w",
      "hen"
    ],
    [
      "ymo",
      "),"
    ],
    [
      "c",
      "alled"
    ],
    [
      "machines",
      "."
    ],
    [
      "throughou",
      "t"
    ],
    [
      "Wa",
      "ymo),"
    ],
    [
      "ys",
      "tems"
    ],
    [
      "i",
      "del"
    ],
    [
      "foll",
      "owed"
    ],
    [
      "strateg",
      "ic"
    ],
    [
      "S",
      "iri"
    ],
    [
      "inter",
      "est"
    ],
    [
      "of",
      "ile"
    ],
    [
      "app",
      "lication"
    ],
    [
      "ci",
      "pline"
    ],
    [
      "high-pr",
      "ofile"
    ],
    [
      "an",
      "ced"
    ],
    [
      "g",
      "ove"
    ],
    [
      "o",
      "ther"
    ],
    [
      "le",
      "vel"
    ],
    [
      "w",
      "idel"
    ],
    [
      "sur",
      "passed"
    ],
    [
      "F",
      "unding"
    ],
    [
      "inter",
      "\""
    ],
    [
      "ultip",
      "le"
    ],
    [
      "c",
      "ycles"
    ],
    [
      "You",
      "Tube,"
    ],
    [
      "s",
      "ystems"
    ],
    [
      "cre",
      "ative"
    ],
    [
      "re",
      "commendation"
    ],
    [
      "m",
      "ultiple"
    ],
    [
      "usuall",
      "y"
    ],
    [
      "AIs",
      "."
    ],
    [
      "(",
      "Ch"
    ],
    [
      "th",
      "at"
    ],
    [
      "softw",
      "are,"
    ],
    [
      "op",
      "s"
    ],
    [
      "self-d",
      "riving"
    ],
    [
      "car",
      "s"
    ],
    [
      "adv",
      "anced"
    ],
    [
      "w",
      "as"
    ],
    [
      "ima",
      "ls."
    ],
    [
      "op",
      "tim"
    ],
    [
      "inter\"",
      "."
    ],
    [
      "disappoint",
      "ment"
    ],
    [
      "beings",
      ","
    ],
    [
      "dis",
      "cipline"
    ],
    [
      "1",
      "956."
    ],
    [
      "le",
      "arning"
    ],
    [
      "prev",
      "iou"
    ],
    [
      "(Ch",
      "atGPT"
    ],
    [
      "optim",
      "ism,"
    ],
    [
      "application",
      "s"
    ],
    [
      "rn",
      "ment,"
    ],
    [
      "g",
      "enerative"
    ],
    [
      "nd",
      "ed"
    ],
    [
      "A",
      "mazon,"
    ],
    [
      "Netflix",
      "),"
    ],
    [
      "stud",
      "y"
    ],
    [
      "Go",
      ")."
    ],
    [
      "industr",
      "y,"
    ],
    [
      "l",
      "iving"
    ],
    [
      "aca",
      "demic"
    ],
    [
      "w",
      "inter\"."
    ],
    [
      "201",
      "2"
    ],
    [
      "incre",
      "ased"
    ],
    [
      "an",
      "imals."
    ],
    [
      "gove",
      "rnment,"
    ],
    [
      "devel",
      "ops"
    ],
    [
      "l",
      "oss"
    ],
    [
      "widel",
      "y"
    ],
    [
      "previou",
      "s"
    ],
    [
      "fou",
      "nded"
    ]
  ],
  "token_to_id": {
    "\n": 1,
    "\r": 2,
    " ": 3,
    "\"": 4,
    "\"AI": 346,
    "(": 5,
    "(AI)": 353,
    "(Ch": 393,
    "(ChatGPT": 410,
    "(e": 115,
    "(e.g.,": 142,
    "(such": 121,
    "(used": 262,
    ")": 6,
    "),": 83,
    ").": 274,
    ",": 7,
    "-": 8,
    ".": 9,
    ".,": 107,
    ".g.,": 136,
    "0": 10,
    "1": 11,
    "1956.": 407,
    "2": 12,
    "20": 192,
    "201": 333,
    "2012": 424,
    "5": 13,
    "6": 14,
    "6.": 168,
    "9": 15,
    "95": 229,
    "956.": 272,
    ":": 16,
    "A": 17,
    "AI": 77,
    "AI)": 239,
    "AIs": 198,
    "AIs.": 392,
    "Alex": 215,
    "Alexa),": 345,
    "Amazon,": 416,
    "Artifi": 119,
    "Artifici": 149,
    "Artificial": 160,
    "C": 18,
    "Ch": 183,
    "F": 19,
    "Funding": 382,
    "G": 20,
    "Go": 151,
    "Go).": 419,
    "Goog": 248,
    "Google": 276,
    "I": 21,
    "It": 300,
    "N": 22,
    "Netflix": 329,
    "Netflix),": 417,
    "P": 23,
    "PT": 211,
    "S": 24,
    "Search": 289,
    "Search),": 359,
    "Siri": 370,
    "Some": 312,
    "Su": 243,
    "Such": 358,
    "T": 25,
    "The": 280,
    "Tu": 284,
    "Tube,": 344,
    "W": 26,
    "Wa": 321,
    "Waymo),": 365,
    "Y": 27,
    "You": 319,
    "YouTube,": 386,
    "[UNK]": 0,
    "a": 28,
    "a),": 281,
    "aca": 350,
    "academic": 422,
    "ad": 167,
    "adv": 189,
    "advanced": 399,
    "after": 293,
    "al": 141,
    "all": 100,
    "alled": 206,
    "am": 180,
    "an": 54,
    "anced": 376,
    "and": 59,
    "animals.": 426,
    "app": 132,
    "application": 373,
    "applications": 412,
    "ar": 66,
    "are": 163,
    "are,": 226,
    "are:": 343,
    "arning": 356,
    "art": 173,
    "art),": 216,
    "as": 61,
    "ased": 201,
    "at": 99,
    "atG": 240,
    "atGPT": 268,
    "ateg": 224,
    "ati": 85,
    "ation": 143,
    "ative": 148,
    "b": 29,
    "be": 101,
    "be,": 270,
    "being": 165,
    "beings": 286,
    "beings,": 405,
    "by": 162,
    "c": 30,
    "ca": 218,
    "called": 362,
    "car": 291,
    "cars": 398,
    "ced": 315,
    "ch": 57,
    "ches": 191,
    "chess": 292,
    "chines": 98,
    "chn": 127,
    "ci": 79,
    "cience": 134,
    "cipline": 374,
    "com": 102,
    "comm": 199,
    "commendation": 336,
    "comp": 108,
    "compet": 190,
    "competing": 278,
    "compu": 208,
    "computer": 230,
    "cre": 135,
    "creative": 388,
    "cycles": 385,
    "d": 31,
    "dation": 301,
    "de": 84,
    "dee": 193,
    "deep": 222,
    "del": 325,
    "dem": 205,
    "demic": 334,
    "devel": 174,
    "develops": 428,
    "dis": 120,
    "disapp": 251,
    "disappoin": 295,
    "disappoint": 299,
    "disappointment": 404,
    "discipline": 406,
    "e": 32,
    "ear": 129,
    "earch": 137,
    "eb": 171,
    "ed": 62,
    "ee": 213,
    "el": 75,
    "eld": 153,
    "en": 55,
    "enc": 74,
    "ence": 76,
    "endation": 324,
    "ene": 266,
    "enerative": 322,
    "engines": 303,
    "ent": 86,
    "es": 58,
    "es.": 250,
    "est": 161,
    "et": 114,
    "etfl": 221,
    "etfli": 245,
    "etflix": 302,
    "f": 33,
    "f-": 175,
    "f-d": 217,
    "fi": 92,
    "field": 156,
    "fl": 200,
    "fo": 307,
    "foll": 354,
    "followed": 368,
    "fou": 265,
    "founded": 432,
    "fter": 244,
    "funding": 233,
    "funding,": 335,
    "g": 34,
    "g.,": 113,
    "gam": 204,
    "games": 351,
    "generative": 414,
    "gh": 144,
    "gines": 179,
    "gove": 377,
    "government,": 427,
    "h": 35,
    "he": 261,
    "hen": 316,
    "high": 152,
    "high-": 219,
    "high-p": 258,
    "high-pr": 337,
    "high-profile": 375,
    "highest": 177,
    "human": 150,
    "humans": 347,
    "i": 36,
    "ic": 97,
    "idel": 367,
    "ig": 68,
    "igh": 138,
    "ile": 287,
    "ima": 340,
    "imals.": 401,
    "in": 53,
    "incre": 285,
    "increased": 425,
    "ind": 225,
    "industr": 323,
    "industry,": 420,
    "ines": 88,
    "ing": 63,
    "inte": 67,
    "intell": 78,
    "intellig": 82,
    "intelligence": 90,
    "intelligent": 306,
    "inter": 126,
    "inter\"": 383,
    "inter\".": 403,
    "interest": 371,
    "iou": 330,
    "iqu": 235,
    "iques.": 294,
    "ir": 172,
    "iri": 305,
    "is": 71,
    "ism": 178,
    "ism,": 327,
    "iv": 110,
    "iving": 125,
    "k": 37,
    "kn": 176,
    "know": 220,
    "known": 246,
    "l": 38,
    "le": 72,
    "learning": 408,
    "les": 255,
    "level": 379,
    "lex": 187,
    "lic": 259,
    "lication": 320,
    "lin": 170,
    "living": 421,
    "ll": 60,
    "loss": 429,
    "ls": 147,
    "ls.": 279,
    "ly": 264,
    "m": 39,
    "ma": 70,
    "machines": 103,
    "machines.": 363,
    "man": 124,
    "may": 231,
    "mazon": 314,
    "mazon,": 341,
    "ment": 131,
    "ment,": 308,
    "mo": 273,
    "multiple": 390,
    "n": 40,
    "nd": 104,
    "nded": 415,
    "ning": 227,
    "o": 41,
    "of": 69,
    "ofile": 372,
    "oft": 202,
    "oftw": 253,
    "og": 123,
    "oin": 282,
    "om": 87,
    "ome": 309,
    "on": 94,
    "op": 96,
    "opp": 214,
    "opposed": 254,
    "ops": 396,
    "optim": 402,
    "optimism,": 411,
    "or": 95,
    "os": 186,
    "osed": 203,
    "oss": 242,
    "other": 378,
    "ou": 73,
    "ove": 210,
    "ow": 158,
    "owed": 331,
    "p": 42,
    "pas": 188,
    "passed": 313,
    "pee": 223,
    "plin": 232,
    "pline": 249,
    "pp": 112,
    "prev": 298,
    "previou": 409,
    "previous": 431,
    "q": 43,
    "qu": 196,
    "r": 44,
    "rative": 195,
    "re": 89,
    "recommendation": 389,
    "rev": 267,
    "riving": 332,
    "rn": 212,
    "rnment,": 413,
    "rstanding": 317,
    "rtifi": 118,
    "s": 45,
    "science": 157,
    "science.": 164,
    "search": 166,
    "sed": 93,
    "sel": 277,
    "self-d": 288,
    "self-driving": 397,
    "softw": 326,
    "software,": 395,
    "spee": 260,
    "speech": 349,
    "st": 80,
    "stand": 197,
    "standing": 296,
    "str": 130,
    "strateg": 352,
    "strategic": 369,
    "stu": 111,
    "stud": 146,
    "studi": 228,
    "studies": 338,
    "study": 418,
    "su": 91,
    "suall": 181,
    "such": 106,
    "sur": 169,
    "surpassed": 381,
    "systems": 387,
    "t": 46,
    "te": 56,
    "techn": 154,
    "techniques.": 304,
    "techno": 194,
    "technol": 237,
    "technolog": 310,
    "technology": 318,
    "teg": 209,
    "tem": 238,
    "tems": 269,
    "ter": 128,
    "th": 64,
    "that": 394,
    "the": 81,
    "ther": 182,
    "thr": 122,
    "throu": 133,
    "through": 155,
    "throughou": 207,
    "throughout": 364,
    "ti": 65,
    "tifi": 109,
    "tim": 290,
    "tip": 236,
    "to": 139,
    "too": 184,
    "tools": 247,
    "u": 47,
    "ul": 271,
    "ultip": 357,
    "ultiple": 384,
    "uman": 140,
    "un": 275,
    "und": 116,
    "unde": 311,
    "understanding": 339,
    "unding": 159,
    "used": 117,
    "ustr": 257,
    "usuall": 328,
    "usually": 391,
    "v": 48,
    "vas": 234,
    "vast": 256,
    "vastly": 342,
    "ve": 105,
    "vel": 145,
    "w": 49,
    "was": 400,
    "web": 263,
    "went": 241,
    "when": 360,
    "widel": 380,
    "widely": 430,
    "winter\".": 423,
    "x": 50,
    "y": 51,
    "y,": 355,
    "yc": 252,
    "ycles": 283,
    "ymo": 297,
    "ymo),": 361,
    "ys": 348,
    "ystems": 366,
    "z": 52,
    "zon": 185
  },
  "vocab_size": 433
}